{
  "0": "\u0000",
  "1": "\u0001",
  "2": "\u0002",
  "3": "\u0003",
  "4": "\u0004",
  "5": "\u0005",
  "6": "\u0006",
  "7": "\u0007",
  "8": "\b",
  "9": "\t",
  "10": "\n",
  "11": "\u000b",
  "12": "\f",
  "13": "\r",
  "14": "\u000e",
  "15": "\u000f",
  "16": "\u0010",
  "17": "\u0011",
  "18": "\u0012",
  "19": "\u0013",
  "20": "\u0014",
  "21": "\u0015",
  "22": "\u0016",
  "23": "\u0017",
  "24": "\u0018",
  "25": "\u0019",
  "26": "\u001a",
  "27": "\u001b",
  "28": "\u001c",
  "29": "\u001d",
  "30": "\u001e",
  "31": "\u001f",
  "32": " ",
  "33": "!",
  "34": "\"",
  "35": "#",
  "36": "$",
  "37": "%",
  "38": "&",
  "39": "'",
  "40": "(",
  "41": ")",
  "42": "*",
  "43": "+",
  "44": ",",
  "45": "-",
  "46": ".",
  "47": "/",
  "48": "0",
  "49": "1",
  "50": "2",
  "51": "3",
  "52": "4",
  "53": "5",
  "54": "6",
  "55": "7",
  "56": "8",
  "57": "9",
  "58": ":",
  "59": ";",
  "60": "<",
  "61": "=",
  "62": ">",
  "63": "?",
  "64": "@",
  "65": "A",
  "66": "B",
  "67": "C",
  "68": "D",
  "69": "E",
  "70": "F",
  "71": "G",
  "72": "H",
  "73": "I",
  "74": "J",
  "75": "K",
  "76": "L",
  "77": "M",
  "78": "N",
  "79": "O",
  "80": "P",
  "81": "Q",
  "82": "R",
  "83": "S",
  "84": "T",
  "85": "U",
  "86": "V",
  "87": "W",
  "88": "X",
  "89": "Y",
  "90": "Z",
  "91": "[",
  "92": "\\",
  "93": "]",
  "94": "^",
  "95": "_",
  "96": "`",
  "97": "a",
  "98": "b",
  "99": "c",
  "100": "d",
  "101": "e",
  "102": "f",
  "103": "g",
  "104": "h",
  "105": "i",
  "106": "j",
  "107": "k",
  "108": "l",
  "109": "m",
  "110": "n",
  "111": "o",
  "112": "p",
  "113": "q",
  "114": "r",
  "115": "s",
  "116": "t",
  "117": "u",
  "118": "v",
  "119": "w",
  "120": "x",
  "121": "y",
  "122": "z",
  "123": "{",
  "124": "|",
  "125": "}",
  "126": "~",
  "127": "",
  "128": "�",
  "129": "�",
  "130": "�",
  "131": "�",
  "132": "�",
  "133": "�",
  "134": "�",
  "135": "�",
  "136": "�",
  "137": "�",
  "138": "�",
  "139": "�",
  "140": "�",
  "141": "�",
  "142": "�",
  "143": "�",
  "144": "�",
  "145": "�",
  "146": "�",
  "147": "�",
  "148": "�",
  "149": "�",
  "150": "�",
  "151": "�",
  "152": "�",
  "153": "�",
  "154": "�",
  "155": "�",
  "156": "�",
  "157": "�",
  "158": "�",
  "159": "�",
  "160": "�",
  "161": "�",
  "162": "�",
  "163": "�",
  "164": "�",
  "165": "�",
  "166": "�",
  "167": "�",
  "168": "�",
  "169": "�",
  "170": "�",
  "171": "�",
  "172": "�",
  "173": "�",
  "174": "�",
  "175": "�",
  "176": "�",
  "177": "�",
  "178": "�",
  "179": "�",
  "180": "�",
  "181": "�",
  "182": "�",
  "183": "�",
  "184": "�",
  "185": "�",
  "186": "�",
  "187": "�",
  "188": "�",
  "189": "�",
  "190": "�",
  "191": "�",
  "192": "�",
  "193": "�",
  "194": "�",
  "195": "�",
  "196": "�",
  "197": "�",
  "198": "�",
  "199": "�",
  "200": "�",
  "201": "�",
  "202": "�",
  "203": "�",
  "204": "�",
  "205": "�",
  "206": "�",
  "207": "�",
  "208": "�",
  "209": "�",
  "210": "�",
  "211": "�",
  "212": "�",
  "213": "�",
  "214": "�",
  "215": "�",
  "216": "�",
  "217": "�",
  "218": "�",
  "219": "�",
  "220": "�",
  "221": "�",
  "222": "�",
  "223": "�",
  "224": "�",
  "225": "�",
  "226": "�",
  "227": "�",
  "228": "�",
  "229": "�",
  "230": "�",
  "231": "�",
  "232": "�",
  "233": "�",
  "234": "�",
  "235": "�",
  "236": "�",
  "237": "�",
  "238": "�",
  "239": "�",
  "240": "�",
  "241": "�",
  "242": "�",
  "243": "�",
  "244": "�",
  "245": "�",
  "246": "�",
  "247": "�",
  "248": "�",
  "249": "�",
  "250": "�",
  "251": "�",
  "252": "�",
  "253": "�",
  "254": "�",
  "255": "�",
  "256": "<|endoftext|>",
  "257": " t",
  "258": "he",
  "259": " a",
  "260": " s",
  "261": " w",
  "262": "nd",
  "263": "ed",
  "264": " f",
  "265": " h",
  "266": "it",
  "267": " the",
  "268": "er",
  "269": "as",
  "270": "in",
  "271": " to",
  "272": " d",
  "273": "is",
  "274": " b",
  "275": "ie",
  "276": "re",
  "277": "ll",
  "278": "ou",
  "279": "ay",
  "280": " and",
  "281": " was",
  "282": " n",
  "283": " l",
  "284": " T",
  "285": " p",
  "286": " o",
  "287": "me",
  "288": " th",
  "289": " c",
  "290": "at",
  "291": " B",
  "292": "uc",
  "293": "en",
  "294": "rie",
  "295": "riend",
  "296": "ow",
  "297": "ne",
  "298": " friend",
  "299": "ing",
  "300": " The",
  "301": " he",
  "302": "ig",
  "303": "an",
  "304": " v",
  "305": "lay",
  "306": "ith",
  "307": "ir",
  "308": "id",
  "309": " with",
  "310": " sh",
  "311": " sa",
  "312": "ucy",
  "313": "ot",
  "314": "ly",
  "315": "im",
  "316": "Lucy",
  "317": " play",
  "318": " his",
  "319": " ha",
  "320": " Lucy",
  "321": "ome",
  "322": "ge",
  "323": "am",
  "324": "He",
  "325": " sp",
  "326": " m",
  "327": " it",
  "328": " e",
  "329": " O",
  "330": "irit",
  "331": " day",
  "332": "to",
  "333": "or",
  "334": "ob",
  "335": "ma",
  "336": "llie",
  "337": "ke",
  "338": "ic",
  "339": "ery",
  "340": " spirit",
  "341": " not",
  "342": " her",
  "343": " be",
  "344": " Bob",
  "345": " u",
  "346": " He",
  "347": " \"",
  "348": "ved",
  "349": "maz",
  "350": "ase",
  "351": "all",
  "352": " vase",
  "353": " up",
  "354": " that",
  "355": " said",
  "356": " sto",
  "357": " lo",
  "358": " friends",
  "359": " big",
  "360": " amaz",
  "361": " They",
  "362": " Ollie",
  "363": " Ben",
  "364": "ut",
  "365": "ran",
  "366": "range",
  "367": "on",
  "368": "om",
  "369": "ok",
  "370": "le",
  "371": "ld",
  "372": "ish",
  "373": "ily",
  "374": " very",
  "375": " show",
  "376": " orange",
  "377": " home",
  "378": " for",
  "379": " fish",
  "380": " in",
  "381": " g",
  "382": "ve",
  "383": "ur",
  "384": "um",
  "385": "umb",
  "386": "the",
  "387": "ther",
  "388": "pp",
  "389": "ound",
  "390": "ner",
  "391": "inner",
  "392": "iger",
  "393": "ick",
  "394": "ere",
  "395": "amily",
  "396": "al",
  "397": " were",
  "398": " thumb",
  "399": " tiger",
  "400": " pick",
  "401": " mom",
  "402": " li",
  "403": " family",
  "404": " do",
  "405": " dinner",
  "406": " amazing",
  "407": " an",
  "408": " Tim",
  "409": " re",
  "410": " I",
  "411": "�",
  "412": "uck",
  "413": "tle",
  "414": "ore",
  "415": "nc",
  "416": "nce",
  "417": "mi",
  "418": "ittle",
  "419": "iny",
  "420": "ime",
  "421": "hen",
  "422": "ec",
  "423": "amed",
  "424": "ar",
  "425": "ake",
  "426": "Once",
  "427": "!\"",
  "428": " upon",
  "429": " there",
  "430": " time",
  "431": " stone",
  "432": " shiny",
  "433": " saw",
  "434": " some",
  "435": " so",
  "436": " on",
  "437": " of",
  "438": " ne",
  "439": " named",
  "440": " loved",
  "441": " little",
  "442": " happ",
  "443": " had",
  "444": " ev",
  "445": " cat",
  "446": " all",
  "447": " is",
  "448": " W",
  "449": "you",
  "450": "ver",
  "451": "un",
  "452": "tt",
  "453": "ri",
  "454": "out",
  "455": "oug",
  "456": "ough",
  "457": "oy",
  "458": "mil",
  "459": "miled",
  "460": "lie",
  "461": "lieve",
  "462": "if",
  "463": "hing",
  "464": "gether",
  "465": "ent",
  "466": "alled",
  "467": "One",
  "468": "'s",
  "469": " went",
  "470": " told",
  "471": " together",
  "472": " take",
  "473": " store",
  "474": " smiled",
  "475": " played",
  "476": " look",
  "477": " how",
  "478": " him",
  "479": " go",
  "480": " friendly",
  "481": " fun",
  "482": " found",
  "483": " dog",
  "484": " duck",
  "485": " did",
  "486": " catc",
  "487": " cou",
  "488": " can",
  "489": " called",
  "490": " believe",
  "491": " boy",
  "492": " ball",
  "493": " One",
  "494": " It",
  "495": " you",
  "496": " me",
  "497": " S",
  "498": " A",
  "499": "”",
  "500": "“",
  "501": "xp",
  "502": "utif",
  "503": "utifu",
  "504": "utiful",
  "505": "urr",
  "506": "urry",
  "507": "tter",
  "508": "thing",
  "509": "ted",
  "510": "ss",
  "511": "se",
  "512": "round",
  "513": "ower",
  "514": "owers",
  "515": "ought",
  "516": "ots",
  "517": "one",
  "518": "lowers",
  "519": "ird",
  "520": "ings",
  "521": "ice",
  "522": "ion",
  "523": "ial",
  "524": "his",
  "525": "hat",
  "526": "eryone",
  "527": "ecial",
  "528": "dd",
  "529": "ck",
  "530": "bout",
  "531": "ation",
  "532": "asy",
  "533": "autiful",
  "534": "ad",
  "535": "ack",
  "536": "You",
  "537": "His",
  "538": "Hi",
  "539": "?\"",
  "540": ".\"",
  "541": " we",
  "542": " took",
  "543": " they",
  "544": " thought",
  "545": " things",
  "546": " special",
  "547": " something",
  "548": " showed",
  "549": " sw",
  "550": " real",
  "551": " picked",
  "552": " other",
  "553": " new",
  "554": " now",
  "555": " nice",
  "556": " lived",
  "557": " like",
  "558": " lots",
  "559": " happy",
  "560": " have",
  "561": " hurry",
  "562": " flowers",
  "563": " everyone",
  "564": " even",
  "565": " easy",
  "566": " could",
  "567": " catch",
  "568": " ca",
  "569": " beautiful",
  "570": " but",
  "571": " back",
  "572": " amazed",
  "573": " about",
  "574": " When",
  "575": " She",
  "576": " But",
  "577": " “",
  "578": " k",
  "579": " You",
  "580": "yw",
  "581": "ywhe",
  "582": "ywhere",
  "583": "xpl",
  "584": "xplore",
  "585": "xpec",
  "586": "xpected",
  "587": "xc",
  "588": "xcit",
  "589": "xcited",
  "590": "way",
  "591": "ways",
  "592": "ving",
  "593": "urp",
  "594": "urpr",
  "595": "urpris",
  "596": "urprised",
  "597": "urn",
  "598": "urned",
  "599": "uri",
  "600": "uriou",
  "601": "urious",
  "602": "uriously",
  "603": "ucky",
  "604": "uch",
  "605": "uy",
  "606": "ull",
  "607": "ully",
  "608": "ug",
  "609": "ugg",
  "610": "ugged",
  "611": "udd",
  "612": "udden",
  "613": "uddenly",
  "614": "tty",
  "615": "ter",
  "616": "tar",
  "617": "tarted",
  "618": "sid",
  "619": "side",
  "620": "river",
  "621": "rived",
  "622": "ried",
  "623": "retty",
  "624": "ress",
  "625": "ref",
  "626": "refully",
  "627": "reen",
  "628": "rec",
  "629": "reci",
  "630": "reciation",
  "631": "rse",
  "632": "rrived",
  "633": "rough",
  "634": "rou",
  "635": "roud",
  "636": "rom",
  "637": "ro",
  "638": "ross",
  "639": "ppreciation",
  "640": "pt",
  "641": "play",
  "642": "pke",
  "643": "pkee",
  "644": "pkeep",
  "645": "pkeeper",
  "646": "pirit",
  "647": "pirits",
  "648": "outside",
  "649": "ouse",
  "650": "orld",
  "651": "opkeeper",
  "652": "ook",
  "653": "ol",
  "654": "olor",
  "655": "odd",
  "656": "odded",
  "657": "nexpected",
  "658": "new",
  "659": "nder",
  "660": "now",
  "661": "nore",
  "662": "minder",
  "663": "mall",
  "664": "lways",
  "665": "lt",
  "666": "look",
  "667": "li",
  "668": "lia",
  "669": "liab",
  "670": "liable",
  "671": "kept",
  "672": "king",
  "673": "ked",
  "674": "isplay",
  "675": "irds",
  "676": "irl",
  "677": "ination",
  "678": "ima",
  "679": "imag",
  "680": "imagination",
  "681": "ignore",
  "682": "ided",
  "683": "iced",
  "684": "ill",
  "685": "ile",
  "686": "hile",
  "687": "get",
  "688": "got",
  "689": "fter",
  "690": "fore",
  "691": "ened",
  "692": "ecided",
  "693": "elt",
  "694": "een",
  "695": "ean",
  "696": "eaned",
  "697": "cross",
  "698": "car",
  "699": "cared",
  "700": "ater",
  "701": "ast",
  "702": "arried",
  "703": "ark",
  "704": "any",
  "705": "ally",
  "706": "alking",
  "707": "ade",
  "708": "Wow",
  "709": "While",
  "710": "Tim",
  "711": "This",
  "712": "Then",
  "713": "The",
  "714": "Spirits",
  "715": "So",
  "716": "Ollie",
  "717": "Of",
  "718": "From",
  "719": "Can",
  "720": "At",
  "721": "And",
  "722": "?”",
  "723": "'t",
  "724": "!”",
  "725": " your",
  "726": " weird",
  "727": " world",
  "728": " when",
  "729": " what",
  "730": " walking",
  "731": " vases",
  "732": " unexpected",
  "733": " too",
  "734": " then",
  "735": " them",
  "736": " through",
  "737": " this",
  "738": " turned",
  "739": " swim",
  "740": " swam",
  "741": " shopkeeper",
  "742": " shake",
  "743": " sad",
  "744": " surprised",
  "745": " suddenly",
  "746": " started",
  "747": " small",
  "748": " she",
  "749": " seen",
  "750": " scared",
  "751": " reminder",
  "752": " reliable",
  "753": " really",
  "754": " playing",
  "755": " proud",
  "756": " pretty",
  "757": " park",
  "758": " others",
  "759": " over",
  "760": " otter",
  "761": " one",
  "762": " noticed",
  "763": " never",
  "764": " need",
  "765": " nodded",
  "766": " met",
  "767": " mean",
  "768": " my",
  "769": " much",
  "770": " more",
  "771": " many",
  "772": " made",
  "773": " looked",
  "774": " liked",
  "775": " lucky",
  "776": " leaned",
  "777": " later",
  "778": " know",
  "779": " knew",
  "780": " into",
  "781": " happily",
  "782": " happened",
  "783": " having",
  "784": " hugged",
  "785": " house",
  "786": " going",
  "787": " ground",
  "788": " green",
  "789": " girl",
  "790": " forgot",
  "791": " felt",
  "792": " fast",
  "793": " explore",
  "794": " excited",
  "795": " end",
  "796": " eat",
  "797": " dress",
  "798": " display",
  "799": " decided",
  "800": " dad",
  "801": " couldn",
  "802": " course",
  "803": " catching",
  "804": " carefully",
  "805": " came",
  "806": " curiously",
  "807": " color",
  "808": " carried",
  "809": " better",
  "810": " before",
  "811": " buy",
  "812": " birds",
  "813": " anywhere",
  "814": " at",
  "815": " as",
  "816": " arrived",
  "817": " around",
  "818": " are",
  "819": " appreciation",
  "820": " always",
  "821": " across",
  "822": " Will",
  "823": " What",
  "824": " Then",
  "825": " This",
  "826": " So",
  "827": " At",
  "828": " All",
  "829": " After",
  "830": " river",
  "831": " outside",
  "832": " kept",
  "833": " imagination",
  "834": " ignore",
  "835": " if",
  "836": " get",
  "837": " His",
  "838": " Can"
}